/* Copyright 2020 The TensorFlow Authors. All Rights Reserved.

Licensed under the Apache License, Version 2.0 (the "License");
you may not use this file except in compliance with the License.
You may obtain a copy of the License at

    http://www.apache.org/licenses/LICENSE-2.0

Unless required by applicable law or agreed to in writing, software
distributed under the License is distributed on an "AS IS" BASIS,
WITHOUT WARRANTIES OR CONDITIONS OF ANY KIND, either express or implied.
See the License for the specific language governing permissions and
limitations under the License.
==============================================================================*/

// Automatically created from a TensorFlow Lite flatbuffer using the command:
// xxd -i model.tflite > model.cc

// This is a standard TensorFlow Lite model file that has been converted into a
// C data array, so it can be easily compiled into a binary for devices that
// don't have a file system.

// See train/README.md for a full description of the creation process.

#include "model.h"

// Keep model aligned to 8 bytes to guarantee aligned 64-bit accesses.
alignas(8) const unsigned char g_model[] = {
        0x20, 0x00, 0x00, 0x00, 0x54, 0x46, 0x4c, 0x33, 0x00, 0x00, 0x00, 0x00,
        0x14, 0x00, 0x20, 0x00, 0x1c, 0x00, 0x18, 0x00, 0x14, 0x00, 0x10, 0x00,
        0x0c, 0x00, 0x00, 0x00, 0x08, 0x00, 0x04, 0x00, 0x14, 0x00, 0x00, 0x00,
        0x1c, 0x00, 0x00, 0x00, 0x94, 0x00, 0x00, 0x00, 0xec, 0x00, 0x00, 0x00,
        0xc8, 0x04, 0x00, 0x00, 0xd8, 0x04, 0x00, 0x00, 0x58, 0x0e, 0x00, 0x00,
        0x03, 0x00, 0x00, 0x00, 0x01, 0x00, 0x00, 0x00, 0x04, 0x00, 0x00, 0x00,
        0xe2, 0xfa, 0xff, 0xff, 0x0c, 0x00, 0x00, 0x00, 0x1c, 0x00, 0x00, 0x00,
        0x38, 0x00, 0x00, 0x00, 0x0f, 0x00, 0x00, 0x00, 0x73, 0x65, 0x72, 0x76,
        0x69, 0x6e, 0x67, 0x5f, 0x64, 0x65, 0x66, 0x61, 0x75, 0x6c, 0x74, 0x00,
        0x01, 0x00, 0x00, 0x00, 0x04, 0x00, 0x00, 0x00, 0x88, 0xff, 0xff, 0xff,
        0x0c, 0x00, 0x00, 0x00, 0x04, 0x00, 0x00, 0x00, 0x07, 0x00, 0x00, 0x00,
        0x64, 0x65, 0x6e, 0x73, 0x65, 0x5f, 0x32, 0x00, 0x01, 0x00, 0x00, 0x00,
        0x04, 0x00, 0x00, 0x00, 0xea, 0xfa, 0xff, 0xff, 0x04, 0x00, 0x00, 0x00,
        0x19, 0x00, 0x00, 0x00, 0x62, 0x61, 0x74, 0x63, 0x68, 0x5f, 0x6e, 0x6f,
        0x72, 0x6d, 0x61, 0x6c, 0x69, 0x7a, 0x61, 0x74, 0x69, 0x6f, 0x6e, 0x5f,
        0x69, 0x6e, 0x70, 0x75, 0x74, 0x00, 0x00, 0x00, 0x02, 0x00, 0x00, 0x00,
        0x34, 0x00, 0x00, 0x00, 0x04, 0x00, 0x00, 0x00, 0xdc, 0xff, 0xff, 0xff,
        0x0f, 0x00, 0x00, 0x00, 0x04, 0x00, 0x00, 0x00, 0x13, 0x00, 0x00, 0x00,
        0x43, 0x4f, 0x4e, 0x56, 0x45, 0x52, 0x53, 0x49, 0x4f, 0x4e, 0x5f, 0x4d,
        0x45, 0x54, 0x41, 0x44, 0x41, 0x54, 0x41, 0x00, 0x08, 0x00, 0x0c, 0x00,
        0x08, 0x00, 0x04, 0x00, 0x08, 0x00, 0x00, 0x00, 0x0e, 0x00, 0x00, 0x00,
        0x04, 0x00, 0x00, 0x00, 0x13, 0x00, 0x00, 0x00, 0x6d, 0x69, 0x6e, 0x5f,
        0x72, 0x75, 0x6e, 0x74, 0x69, 0x6d, 0x65, 0x5f, 0x76, 0x65, 0x72, 0x73,
        0x69, 0x6f, 0x6e, 0x00, 0x10, 0x00, 0x00, 0x00, 0xd8, 0x03, 0x00, 0x00,
        0xd0, 0x03, 0x00, 0x00, 0xb4, 0x03, 0x00, 0x00, 0x9c, 0x03, 0x00, 0x00,
        0x84, 0x03, 0x00, 0x00, 0x6c, 0x03, 0x00, 0x00, 0x4c, 0x03, 0x00, 0x00,
        0xbc, 0x00, 0x00, 0x00, 0xb4, 0x00, 0x00, 0x00, 0xac, 0x00, 0x00, 0x00,
        0xa4, 0x00, 0x00, 0x00, 0x9c, 0x00, 0x00, 0x00, 0x94, 0x00, 0x00, 0x00,
        0x8c, 0x00, 0x00, 0x00, 0x6c, 0x00, 0x00, 0x00, 0x04, 0x00, 0x00, 0x00,
        0xb2, 0xfb, 0xff, 0xff, 0x04, 0x00, 0x00, 0x00, 0x58, 0x00, 0x00, 0x00,
        0x0c, 0x00, 0x00, 0x00, 0x08, 0x00, 0x0e, 0x00, 0x08, 0x00, 0x04, 0x00,
        0x08, 0x00, 0x00, 0x00, 0x10, 0x00, 0x00, 0x00, 0x28, 0x00, 0x00, 0x00,
        0x00, 0x00, 0x06, 0x00, 0x08, 0x00, 0x04, 0x00, 0x06, 0x00, 0x00, 0x00,
        0x04, 0x00, 0x00, 0x00, 0x01, 0x00, 0x00, 0x00, 0xeb, 0x03, 0x00, 0x00,
        0x00, 0x00, 0x0a, 0x00, 0x10, 0x00, 0x0c, 0x00, 0x08, 0x00, 0x04, 0x00,
        0x0a, 0x00, 0x00, 0x00, 0x02, 0x00, 0x00, 0x00, 0x02, 0x00, 0x00, 0x00,
        0x04, 0x00, 0x00, 0x00, 0x06, 0x00, 0x00, 0x00, 0x32, 0x2e, 0x31, 0x31,
        0x2e, 0x30, 0x00, 0x00, 0x16, 0xfc, 0xff, 0xff, 0x04, 0x00, 0x00, 0x00,
        0x10, 0x00, 0x00, 0x00, 0x31, 0x2e, 0x31, 0x34, 0x2e, 0x30, 0x00, 0x00,
        0x00, 0x00, 0x00, 0x00, 0x00, 0x00, 0x00, 0x00, 0x90, 0xf3, 0xff, 0xff,
        0x94, 0xf3, 0xff, 0xff, 0x98, 0xf3, 0xff, 0xff, 0x9c, 0xf3, 0xff, 0xff,
        0xa0, 0xf3, 0xff, 0xff, 0xa4, 0xf3, 0xff, 0xff, 0x4a, 0xfc, 0xff, 0xff,
        0x04, 0x00, 0x00, 0x00, 0x80, 0x02, 0x00, 0x00, 0x28, 0xc2, 0x22, 0xb3,
        0x3d, 0x35, 0x35, 0xc9, 0x3c, 0xc4, 0xc8, 0xe4, 0x0f, 0x11, 0x29, 0x4b,
        0x44, 0x24, 0x2f, 0x01, 0x02, 0xf4, 0xfa, 0x0c, 0x35, 0xf6, 0xfe, 0x09,
        0xde, 0xce, 0xe4, 0xfd, 0x1f, 0x10, 0xf9, 0xea, 0x0f, 0xe3, 0xcc, 0xdd,
        0x0a, 0x06, 0x0f, 0x22, 0xdd, 0x0b, 0x09, 0x04, 0xff, 0x06, 0x20, 0xf3,
        0xdb, 0x04, 0xf6, 0x13, 0x12, 0x18, 0xf0, 0xfd, 0x05, 0x1f, 0x2e, 0x00,
        0xf5, 0xfc, 0x10, 0x0c, 0x0b, 0x12, 0xd4, 0xe6, 0x3b, 0x5b, 0xfa, 0xfc,
        0xe9, 0xf7, 0x22, 0x1a, 0x21, 0x2f, 0x09, 0x0b, 0x19, 0xff, 0x09, 0x09,
        0x19, 0x32, 0xec, 0x16, 0xf8, 0x1e, 0xed, 0x3d, 0xef, 0xfc, 0xe0, 0xf6,
        0x15, 0x24, 0x04, 0xdd, 0x0d, 0x0f, 0xf8, 0xfa, 0xfd, 0xf5, 0x54, 0x17,
        0x10, 0xe1, 0x36, 0x02, 0x0c, 0xea, 0x09, 0xe0, 0x7f, 0x28, 0x23, 0xf9,
        0x03, 0x1b, 0xe2, 0x0f, 0x05, 0xf3, 0x37, 0x02, 0x0a, 0xf9, 0x1c, 0xdf,
        0xf3, 0xe5, 0xdb, 0xdf, 0x34, 0x07, 0x48, 0x24, 0x1d, 0x07, 0x12, 0x0b,
        0xda, 0xd3, 0xc1, 0xd1, 0x2a, 0x03, 0x19, 0x1a, 0x46, 0xea, 0xf4, 0x4c,
        0xfa, 0x0c, 0xfd, 0x04, 0xff, 0x0b, 0x0c, 0xff, 0xf6, 0x08, 0xcc, 0x06,
        0x0f, 0x0b, 0x10, 0x16, 0x2f, 0x0e, 0x25, 0x09, 0xf9, 0x1c, 0x02, 0x06,
        0x1c, 0x18, 0x0c, 0xfd, 0x0e, 0x11, 0x0b, 0xe6, 0xfc, 0x00, 0xf9, 0x0a,
        0xff, 0x0a, 0x02, 0x05, 0x08, 0xf3, 0x0b, 0x09, 0xfb, 0x01, 0x0b, 0x07,
        0x06, 0x0c, 0x0c, 0x02, 0x24, 0x16, 0xfc, 0x01, 0x05, 0x09, 0xfe, 0x0d,
        0x14, 0x0a, 0xfa, 0x00, 0x01, 0xfb, 0xf8, 0xfa, 0xfd, 0x01, 0x01, 0xfe,
        0xf7, 0xf2, 0x0f, 0xfc, 0x01, 0x03, 0xf3, 0x10, 0xfe, 0x03, 0xf7, 0xee,
        0xf0, 0xef, 0xfb, 0xfc, 0x00, 0xef, 0xfd, 0x05, 0xea, 0xf3, 0xfe, 0xec,
        0xfe, 0x03, 0x05, 0xfd, 0x1c, 0x07, 0xed, 0x07, 0x0a, 0xfe, 0xf0, 0x08,
        0xff, 0x00, 0x21, 0xfe, 0x0b, 0xfe, 0x03, 0x03, 0x09, 0x0b, 0xfd, 0x0b,
        0xff, 0x09, 0xf2, 0x0c, 0x09, 0x0e, 0xfb, 0xfa, 0x0f, 0x01, 0xe5, 0x04,
        0x04, 0xfe, 0xeb, 0x10, 0x01, 0x0a, 0x10, 0x03, 0xfc, 0x03, 0xfd, 0xfd,
        0xfd, 0x04, 0x18, 0x12, 0xfd, 0x08, 0x05, 0x09, 0x0d, 0xe0, 0xeb, 0x03,
        0x17, 0x05, 0x09, 0x0c, 0x1f, 0xfe, 0xff, 0x04, 0x1b, 0xfd, 0x1e, 0xeb,
        0x05, 0x05, 0xe7, 0x0c, 0xcf, 0xe9, 0xf2, 0x0c, 0xce, 0x14, 0x17, 0x0d,
        0xfd, 0xf6, 0x02, 0x05, 0xeb, 0xea, 0xf7, 0x12, 0xeb, 0x0e, 0xf3, 0x09,
        0x0b, 0x00, 0x0f, 0xfb, 0x05, 0x03, 0x0a, 0x22, 0xe8, 0x07, 0xf4, 0xf3,
        0xf6, 0xff, 0x03, 0x0c, 0x05, 0xfd, 0xf1, 0xf7, 0xf8, 0xfe, 0xf7, 0xff,
        0x0e, 0x13, 0x17, 0xfc, 0xf2, 0xeb, 0xf4, 0xff, 0x16, 0x09, 0xfc, 0x01,
        0xf0, 0xfa, 0x03, 0x00, 0xf9, 0xeb, 0x15, 0xfd, 0x19, 0x00, 0x05, 0xfd,
        0xf3, 0xf0, 0xea, 0xfc, 0x05, 0x08, 0x0a, 0x1b, 0x01, 0x05, 0x00, 0xe3,
        0xd4, 0xef, 0x00, 0xf1, 0xfd, 0x10, 0x19, 0xff, 0xef, 0xf0, 0x10, 0x14,
        0x0f, 0x0f, 0x16, 0x16, 0x0a, 0x02, 0xbd, 0x06, 0xf9, 0xf7, 0xef, 0x14,
        0x0e, 0x04, 0xf3, 0x0b, 0xb1, 0xe5, 0x12, 0x02, 0x00, 0xfb, 0x14, 0xf9,
        0xec, 0x07, 0xb2, 0xdf, 0xf4, 0x09, 0xf4, 0xea, 0xf5, 0xf4, 0x06, 0x13,
        0x01, 0xf9, 0xde, 0x07, 0x0a, 0xfd, 0xfa, 0x0a, 0x0e, 0xf3, 0xfe, 0x0d,
        0x03, 0x08, 0x08, 0x1a, 0xe7, 0xf3, 0xf9, 0x0e, 0xfe, 0x05, 0x0b, 0x0a,
        0x11, 0x05, 0x0a, 0xf4, 0x11, 0xf9, 0x0a, 0xfd, 0x1b, 0x2f, 0x05, 0xff,
        0xf1, 0xfb, 0xe5, 0xea, 0xeb, 0x19, 0x11, 0x0c, 0x03, 0xf8, 0x0b, 0xff,
        0xfd, 0xfc, 0x05, 0x1e, 0xfc, 0xfa, 0xfc, 0x02, 0xf7, 0x07, 0x0a, 0x09,
        0x06, 0x02, 0x00, 0xf3, 0xf2, 0xfe, 0xf2, 0xfd, 0x03, 0x09, 0x0e, 0xfb,
        0xed, 0xea, 0xf0, 0xee, 0xec, 0xed, 0x03, 0x0f, 0x10, 0x00, 0xf7, 0x00,
        0xee, 0xf7, 0xe9, 0xfe, 0x0e, 0xf8, 0x28, 0x0b, 0x2d, 0x03, 0x05, 0xf3,
        0xf1, 0xfc, 0x02, 0x07, 0x1e, 0x17, 0x1b, 0x02, 0xf3, 0xf0, 0xfc, 0xe7,
        0xf2, 0xfb, 0x02, 0x01, 0xea, 0x06, 0xe4, 0x0b, 0xfe, 0xf9, 0xfd, 0x00,
        0x18, 0xf7, 0xfe, 0x09, 0x0d, 0x03, 0x0c, 0xeb, 0x02, 0xff, 0x13, 0xec,
        0x02, 0x0e, 0x11, 0xf9, 0xf6, 0xf2, 0xfa, 0x02, 0xee, 0xf2, 0xe8, 0x09,
        0xff, 0xf3, 0xea, 0xfb, 0x05, 0xfd, 0xd3, 0x08, 0x05, 0xfc, 0x1c, 0xf7,
        0x00, 0xff, 0xff, 0x08, 0xf1, 0xf8, 0x03, 0x15, 0xf9, 0x05, 0xff, 0x13,
        0xf7, 0x01, 0x03, 0xda, 0xc2, 0xe2, 0xf8, 0xce, 0x0f, 0xfb, 0xd2, 0x01,
        0xd6, 0xfe, 0xff, 0xff, 0x04, 0x00, 0x00, 0x00, 0x10, 0x00, 0x00, 0x00,
        0x2b, 0xc2, 0xff, 0xff, 0xf4, 0xed, 0xff, 0xff, 0x97, 0x27, 0x00, 0x00,
        0x5f, 0x35, 0x00, 0x00, 0xf2, 0xfe, 0xff, 0xff, 0x04, 0x00, 0x00, 0x00,
        0x08, 0x00, 0x00, 0x00, 0x46, 0x41, 0x81, 0x74, 0x2c, 0x12, 0x3a, 0x94,
        0x06, 0xff, 0xff, 0xff, 0x04, 0x00, 0x00, 0x00, 0x08, 0x00, 0x00, 0x00,
        0x6d, 0xff, 0xff, 0xff, 0xa1, 0x04, 0x00, 0x00, 0x1a, 0xff, 0xff, 0xff,
        0x04, 0x00, 0x00, 0x00, 0x06, 0x00, 0x00, 0x00, 0x17, 0x2e, 0x5b, 0x81,
        0xa6, 0x79, 0x00, 0x00, 0x2e, 0xff, 0xff, 0xff, 0x04, 0x00, 0x00, 0x00,
        0x0c, 0x00, 0x00, 0x00, 0xbb, 0xfc, 0xff, 0xff, 0x65, 0xfd, 0xff, 0xff,
        0x83, 0x04, 0x00, 0x00, 0xa4, 0xf6, 0xff, 0xff, 0xa8, 0xf6, 0xff, 0xff,
        0x0f, 0x00, 0x00, 0x00, 0x4d, 0x4c, 0x49, 0x52, 0x20, 0x43, 0x6f, 0x6e,
        0x76, 0x65, 0x72, 0x74, 0x65, 0x64, 0x2e, 0x00, 0x01, 0x00, 0x00, 0x00,
        0x14, 0x00, 0x00, 0x00, 0x00, 0x00, 0x0e, 0x00, 0x18, 0x00, 0x14, 0x00,
        0x10, 0x00, 0x0c, 0x00, 0x08, 0x00, 0x04, 0x00, 0x0e, 0x00, 0x00, 0x00,
        0x14, 0x00, 0x00, 0x00, 0x1c, 0x00, 0x00, 0x00, 0x7c, 0x01, 0x00, 0x00,
        0x80, 0x01, 0x00, 0x00, 0x84, 0x01, 0x00, 0x00, 0x04, 0x00, 0x00, 0x00,
        0x6d, 0x61, 0x69, 0x6e, 0x00, 0x00, 0x00, 0x00, 0x06, 0x00, 0x00, 0x00,
        0x44, 0x01, 0x00, 0x00, 0xf4, 0x00, 0x00, 0x00, 0xa8, 0x00, 0x00, 0x00,
        0x70, 0x00, 0x00, 0x00, 0x34, 0x00, 0x00, 0x00, 0x10, 0x00, 0x00, 0x00,
        0x00, 0x00, 0x0a, 0x00, 0x10, 0x00, 0x0c, 0x00, 0x08, 0x00, 0x04, 0x00,
        0x0a, 0x00, 0x00, 0x00, 0x0c, 0x00, 0x00, 0x00, 0x10, 0x00, 0x00, 0x00,
        0x03, 0x00, 0x00, 0x00, 0x01, 0x00, 0x00, 0x00, 0x0c, 0x00, 0x00, 0x00,
        0x01, 0x00, 0x00, 0x00, 0x0b, 0x00, 0x00, 0x00, 0x5a, 0xff, 0xff, 0xff,
        0x1c, 0x00, 0x00, 0x00, 0x00, 0x00, 0x00, 0x09, 0x1c, 0x00, 0x00, 0x00,
        0x20, 0x00, 0x00, 0x00, 0x02, 0x00, 0x00, 0x00, 0x00, 0x00, 0x06, 0x00,
        0x08, 0x00, 0x04, 0x00, 0x06, 0x00, 0x00, 0x00, 0x00, 0x00, 0x80, 0x3f,
        0x01, 0x00, 0x00, 0x00, 0x0b, 0x00, 0x00, 0x00, 0x01, 0x00, 0x00, 0x00,
        0x0a, 0x00, 0x00, 0x00, 0x92, 0xff, 0xff, 0xff, 0x14, 0x00, 0x00, 0x00,
        0x00, 0x00, 0x00, 0x08, 0x10, 0x00, 0x00, 0x00, 0x14, 0x00, 0x00, 0x00,
        0x01, 0x00, 0x00, 0x00, 0x94, 0xf7, 0xff, 0xff, 0x01, 0x00, 0x00, 0x00,
        0x0a, 0x00, 0x00, 0x00, 0x03, 0x00, 0x00, 0x00, 0x09, 0x00, 0x00, 0x00,
        0x02, 0x00, 0x00, 0x00, 0x01, 0x00, 0x00, 0x00, 0xc6, 0xff, 0xff, 0xff,
        0x14, 0x00, 0x00, 0x00, 0x00, 0x00, 0x00, 0x08, 0x14, 0x00, 0x00, 0x00,
        0x18, 0x00, 0x00, 0x00, 0x01, 0x00, 0x00, 0x00, 0xb6, 0xff, 0xff, 0xff,
        0x00, 0x00, 0x00, 0x01, 0x01, 0x00, 0x00, 0x00, 0x09, 0x00, 0x00, 0x00,
        0x03, 0x00, 0x00, 0x00, 0x08, 0x00, 0x00, 0x00, 0x04, 0x00, 0x00, 0x00,
        0x03, 0x00, 0x00, 0x00, 0x00, 0x00, 0x0e, 0x00, 0x1a, 0x00, 0x14, 0x00,
        0x10, 0x00, 0x0c, 0x00, 0x0b, 0x00, 0x04, 0x00, 0x0e, 0x00, 0x00, 0x00,
        0x1c, 0x00, 0x00, 0x00, 0x00, 0x00, 0x00, 0x08, 0x1c, 0x00, 0x00, 0x00,
        0x20, 0x00, 0x00, 0x00, 0x01, 0x00, 0x00, 0x00, 0x00, 0x00, 0x06, 0x00,
        0x08, 0x00, 0x07, 0x00, 0x06, 0x00, 0x00, 0x00, 0x00, 0x00, 0x00, 0x01,
        0x01, 0x00, 0x00, 0x00, 0x08, 0x00, 0x00, 0x00, 0x03, 0x00, 0x00, 0x00,
        0x07, 0x00, 0x00, 0x00, 0x06, 0x00, 0x00, 0x00, 0x05, 0x00, 0x00, 0x00,
        0x00, 0x00, 0x0a, 0x00, 0x0c, 0x00, 0x00, 0x00, 0x08, 0x00, 0x04, 0x00,
        0x0a, 0x00, 0x00, 0x00, 0x08, 0x00, 0x00, 0x00, 0x0c, 0x00, 0x00, 0x00,
        0x01, 0x00, 0x00, 0x00, 0x07, 0x00, 0x00, 0x00, 0x01, 0x00, 0x00, 0x00,
        0x00, 0x00, 0x00, 0x00, 0x01, 0x00, 0x00, 0x00, 0x0c, 0x00, 0x00, 0x00,
        0x01, 0x00, 0x00, 0x00, 0x00, 0x00, 0x00, 0x00, 0x0d, 0x00, 0x00, 0x00,
        0x64, 0x07, 0x00, 0x00, 0xc4, 0x06, 0x00, 0x00, 0x3c, 0x06, 0x00, 0x00,
        0xc0, 0x05, 0x00, 0x00, 0x54, 0x05, 0x00, 0x00, 0xc0, 0x04, 0x00, 0x00,
        0xc4, 0x03, 0x00, 0x00, 0x50, 0x03, 0x00, 0x00, 0x2c, 0x02, 0x00, 0x00,
        0x78, 0x01, 0x00, 0x00, 0xdc, 0x00, 0x00, 0x00, 0x60, 0x00, 0x00, 0x00,
        0x04, 0x00, 0x00, 0x00, 0xe6, 0xf8, 0xff, 0xff, 0x00, 0x00, 0x00, 0x01,
        0x14, 0x00, 0x00, 0x00, 0x1c, 0x00, 0x00, 0x00, 0x1c, 0x00, 0x00, 0x00,
        0x0d, 0x00, 0x00, 0x00, 0x34, 0x00, 0x00, 0x00, 0x02, 0x00, 0x00, 0x00,
        0xff, 0xff, 0xff, 0xff, 0x03, 0x00, 0x00, 0x00, 0xd0, 0xf8, 0xff, 0xff,
        0x19, 0x00, 0x00, 0x00, 0x53, 0x74, 0x61, 0x74, 0x65, 0x66, 0x75, 0x6c,
        0x50, 0x61, 0x72, 0x74, 0x69, 0x74, 0x69, 0x6f, 0x6e, 0x65, 0x64, 0x43,
        0x61, 0x6c, 0x6c, 0x3a, 0x30, 0x00, 0x00, 0x00, 0x02, 0x00, 0x00, 0x00,
        0x01, 0x00, 0x00, 0x00, 0x03, 0x00, 0x00, 0x00, 0x36, 0xfd, 0xff, 0xff,
        0x00, 0x00, 0x00, 0x01, 0x18, 0x00, 0x00, 0x00, 0x20, 0x00, 0x00, 0x00,
        0x3c, 0x00, 0x00, 0x00, 0x0c, 0x00, 0x00, 0x00, 0x00, 0x00, 0x00, 0x09,
        0x50, 0x00, 0x00, 0x00, 0x02, 0x00, 0x00, 0x00, 0xff, 0xff, 0xff, 0xff,
        0x03, 0x00, 0x00, 0x00, 0xd4, 0xf9, 0xff, 0xff, 0x08, 0x00, 0x00, 0x00,
        0x10, 0x00, 0x00, 0x00, 0x01, 0x00, 0x00, 0x00, 0x80, 0xff, 0xff, 0xff,
        0xff, 0xff, 0xff, 0xff, 0x01, 0x00, 0x00, 0x00, 0x00, 0x00, 0x80, 0x3b,
        0x1a, 0x00, 0x00, 0x00, 0x53, 0x74, 0x61, 0x74, 0x65, 0x66, 0x75, 0x6c,
        0x50, 0x61, 0x72, 0x74, 0x69, 0x74, 0x69, 0x6f, 0x6e, 0x65, 0x64, 0x43,
        0x61, 0x6c, 0x6c, 0x3a, 0x30, 0x31, 0x00, 0x00, 0x02, 0x00, 0x00, 0x00,
        0x01, 0x00, 0x00, 0x00, 0x03, 0x00, 0x00, 0x00, 0xae, 0xfd, 0xff, 0xff,
        0x00, 0x00, 0x00, 0x01, 0x18, 0x00, 0x00, 0x00, 0x20, 0x00, 0x00, 0x00,
        0x40, 0x00, 0x00, 0x00, 0x0b, 0x00, 0x00, 0x00, 0x00, 0x00, 0x00, 0x09,
        0x70, 0x00, 0x00, 0x00, 0x02, 0x00, 0x00, 0x00, 0xff, 0xff, 0xff, 0xff,
        0x03, 0x00, 0x00, 0x00, 0x4c, 0xfa, 0xff, 0xff, 0x08, 0x00, 0x00, 0x00,
        0x14, 0x00, 0x00, 0x00, 0x01, 0x00, 0x00, 0x00, 0x90, 0xff, 0xff, 0xff,
        0xff, 0xff, 0xff, 0xff, 0x00, 0x00, 0x00, 0x00, 0x01, 0x00, 0x00, 0x00,
        0xc8, 0xe3, 0x52, 0x3d, 0x34, 0x00, 0x00, 0x00, 0x73, 0x65, 0x71, 0x75,
        0x65, 0x6e, 0x74, 0x69, 0x61, 0x6c, 0x2f, 0x64, 0x65, 0x6e, 0x73, 0x65,
        0x5f, 0x32, 0x2f, 0x4d, 0x61, 0x74, 0x4d, 0x75, 0x6c, 0x3b, 0x73, 0x65,
        0x71, 0x75, 0x65, 0x6e, 0x74, 0x69, 0x61, 0x6c, 0x2f, 0x64, 0x65, 0x6e,
        0x73, 0x65, 0x5f, 0x32, 0x2f, 0x42, 0x69, 0x61, 0x73, 0x41, 0x64, 0x64,
        0x00, 0x00, 0x00, 0x00, 0x02, 0x00, 0x00, 0x00, 0x01, 0x00, 0x00, 0x00,
        0x03, 0x00, 0x00, 0x00, 0x46, 0xfe, 0xff, 0xff, 0x00, 0x00, 0x00, 0x01,
        0x18, 0x00, 0x00, 0x00, 0x20, 0x00, 0x00, 0x00, 0x40, 0x00, 0x00, 0x00,
        0x0a, 0x00, 0x00, 0x00, 0x00, 0x00, 0x00, 0x09, 0x88, 0x00, 0x00, 0x00,
        0x02, 0x00, 0x00, 0x00, 0xff, 0xff, 0xff, 0xff, 0x02, 0x00, 0x00, 0x00,
        0xe4, 0xfa, 0xff, 0xff, 0x08, 0x00, 0x00, 0x00, 0x14, 0x00, 0x00, 0x00,
        0x01, 0x00, 0x00, 0x00, 0x80, 0xff, 0xff, 0xff, 0xff, 0xff, 0xff, 0xff,
        0x00, 0x00, 0x00, 0x00, 0x01, 0x00, 0x00, 0x00, 0x02, 0x21, 0x8a, 0x3d,
        0x4c, 0x00, 0x00, 0x00, 0x73, 0x65, 0x71, 0x75, 0x65, 0x6e, 0x74, 0x69,
        0x61, 0x6c, 0x2f, 0x64, 0x65, 0x6e, 0x73, 0x65, 0x5f, 0x31, 0x2f, 0x4d,
        0x61, 0x74, 0x4d, 0x75, 0x6c, 0x3b, 0x73, 0x65, 0x71, 0x75, 0x65, 0x6e,
        0x74, 0x69, 0x61, 0x6c, 0x2f, 0x64, 0x65, 0x6e, 0x73, 0x65, 0x5f, 0x31,
        0x2f, 0x52, 0x65, 0x6c, 0x75, 0x3b, 0x73, 0x65, 0x71, 0x75, 0x65, 0x6e,
        0x74, 0x69, 0x61, 0x6c, 0x2f, 0x64, 0x65, 0x6e, 0x73, 0x65, 0x5f, 0x31,
        0x2f, 0x42, 0x69, 0x61, 0x73, 0x41, 0x64, 0x64, 0x00, 0x00, 0x00, 0x00,
        0x02, 0x00, 0x00, 0x00, 0x01, 0x00, 0x00, 0x00, 0x02, 0x00, 0x00, 0x00,
        0xf6, 0xfe, 0xff, 0xff, 0x00, 0x00, 0x00, 0x01, 0x18, 0x00, 0x00, 0x00,
        0x20, 0x00, 0x00, 0x00, 0x40, 0x00, 0x00, 0x00, 0x09, 0x00, 0x00, 0x00,
        0x00, 0x00, 0x00, 0x09, 0xe0, 0x00, 0x00, 0x00, 0x02, 0x00, 0x00, 0x00,
        0xff, 0xff, 0xff, 0xff, 0x04, 0x00, 0x00, 0x00, 0x94, 0xfb, 0xff, 0xff,
        0x08, 0x00, 0x00, 0x00, 0x14, 0x00, 0x00, 0x00, 0x01, 0x00, 0x00, 0x00,
        0x80, 0xff, 0xff, 0xff, 0xff, 0xff, 0xff, 0xff, 0x00, 0x00, 0x00, 0x00,
        0x01, 0x00, 0x00, 0x00, 0x2d, 0x61, 0xb0, 0x3d, 0xa5, 0x00, 0x00, 0x00,
        0x73, 0x65, 0x71, 0x75, 0x65, 0x6e, 0x74, 0x69, 0x61, 0x6c, 0x2f, 0x62,
        0x61, 0x74, 0x63, 0x68, 0x5f, 0x6e, 0x6f, 0x72, 0x6d, 0x61, 0x6c, 0x69,
        0x7a, 0x61, 0x74, 0x69, 0x6f, 0x6e, 0x2f, 0x62, 0x61, 0x74, 0x63, 0x68,
        0x6e, 0x6f, 0x72, 0x6d, 0x2f, 0x6d, 0x75, 0x6c, 0x5f, 0x31, 0x3b, 0x73,
        0x65, 0x71, 0x75, 0x65, 0x6e, 0x74, 0x69, 0x61, 0x6c, 0x2f, 0x62, 0x61,
        0x74, 0x63, 0x68, 0x5f, 0x6e, 0x6f, 0x72, 0x6d, 0x61, 0x6c, 0x69, 0x7a,
        0x61, 0x74, 0x69, 0x6f, 0x6e, 0x2f, 0x62, 0x61, 0x74, 0x63, 0x68, 0x6e,
        0x6f, 0x72, 0x6d, 0x2f, 0x61, 0x64, 0x64, 0x5f, 0x31, 0x3b, 0x73, 0x65,
        0x71, 0x75, 0x65, 0x6e, 0x74, 0x69, 0x61, 0x6c, 0x2f, 0x64, 0x65, 0x6e,
        0x73, 0x65, 0x2f, 0x4d, 0x61, 0x74, 0x4d, 0x75, 0x6c, 0x3b, 0x73, 0x65,
        0x71, 0x75, 0x65, 0x6e, 0x74, 0x69, 0x61, 0x6c, 0x2f, 0x64, 0x65, 0x6e,
        0x73, 0x65, 0x2f, 0x52, 0x65, 0x6c, 0x75, 0x3b, 0x73, 0x65, 0x71, 0x75,
        0x65, 0x6e, 0x74, 0x69, 0x61, 0x6c, 0x2f, 0x64, 0x65, 0x6e, 0x73, 0x65,
        0x2f, 0x42, 0x69, 0x61, 0x73, 0x41, 0x64, 0x64, 0x31, 0x00, 0x00, 0x00,
        0x02, 0x00, 0x00, 0x00, 0x01, 0x00, 0x00, 0x00, 0x04, 0x00, 0x00, 0x00,
        0x00, 0x00, 0x16, 0x00, 0x20, 0x00, 0x1c, 0x00, 0x1b, 0x00, 0x14, 0x00,
        0x10, 0x00, 0x0c, 0x00, 0x00, 0x00, 0x00, 0x00, 0x08, 0x00, 0x07, 0x00,
        0x16, 0x00, 0x00, 0x00, 0x00, 0x00, 0x00, 0x01, 0x18, 0x00, 0x00, 0x00,
        0x20, 0x00, 0x00, 0x00, 0x40, 0x00, 0x00, 0x00, 0x08, 0x00, 0x00, 0x00,
        0x00, 0x00, 0x00, 0x09, 0x48, 0x00, 0x00, 0x00, 0x02, 0x00, 0x00, 0x00,
        0xff, 0xff, 0xff, 0xff, 0xa0, 0x00, 0x00, 0x00, 0xb4, 0xfc, 0xff, 0xff,
        0x08, 0x00, 0x00, 0x00, 0x14, 0x00, 0x00, 0x00, 0x01, 0x00, 0x00, 0x00,
        0x80, 0xff, 0xff, 0xff, 0xff, 0xff, 0xff, 0xff, 0x00, 0x00, 0x00, 0x00,
        0x01, 0x00, 0x00, 0x00, 0xcb, 0x31, 0x19, 0x3a, 0x0c, 0x00, 0x00, 0x00,
        0x74, 0x66, 0x6c, 0x2e, 0x71, 0x75, 0x61, 0x6e, 0x74, 0x69, 0x7a, 0x65,
        0x00, 0x00, 0x00, 0x00, 0x02, 0x00, 0x00, 0x00, 0x01, 0x00, 0x00, 0x00,
        0xa0, 0x00, 0x00, 0x00, 0x2a, 0xfd, 0xff, 0xff, 0x00, 0x00, 0x00, 0x01,
        0x14, 0x00, 0x00, 0x00, 0x34, 0x00, 0x00, 0x00, 0x07, 0x00, 0x00, 0x00,
        0x00, 0x00, 0x00, 0x09, 0xd4, 0x00, 0x00, 0x00, 0x14, 0xfd, 0xff, 0xff,
        0x08, 0x00, 0x00, 0x00, 0x14, 0x00, 0x00, 0x00, 0x01, 0x00, 0x00, 0x00,
        0x00, 0x00, 0x00, 0x00, 0x00, 0x00, 0x00, 0x00, 0x00, 0x00, 0x00, 0x00,
        0x01, 0x00, 0x00, 0x00, 0x39, 0x99, 0xb3, 0x3e, 0xa4, 0x00, 0x00, 0x00,
        0x73, 0x65, 0x71, 0x75, 0x65, 0x6e, 0x74, 0x69, 0x61, 0x6c, 0x2f, 0x62,
        0x61, 0x74, 0x63, 0x68, 0x5f, 0x6e, 0x6f, 0x72, 0x6d, 0x61, 0x6c, 0x69,
        0x7a, 0x61, 0x74, 0x69, 0x6f, 0x6e, 0x2f, 0x62, 0x61, 0x74, 0x63, 0x68,
        0x6e, 0x6f, 0x72, 0x6d, 0x2f, 0x6d, 0x75, 0x6c, 0x5f, 0x31, 0x3b, 0x73,
        0x65, 0x71, 0x75, 0x65, 0x6e, 0x74, 0x69, 0x61, 0x6c, 0x2f, 0x62, 0x61,
        0x74, 0x63, 0x68, 0x5f, 0x6e, 0x6f, 0x72, 0x6d, 0x61, 0x6c, 0x69, 0x7a,
        0x61, 0x74, 0x69, 0x6f, 0x6e, 0x2f, 0x62, 0x61, 0x74, 0x63, 0x68, 0x6e,
        0x6f, 0x72, 0x6d, 0x2f, 0x61, 0x64, 0x64, 0x5f, 0x31, 0x3b, 0x73, 0x65,
        0x71, 0x75, 0x65, 0x6e, 0x74, 0x69, 0x61, 0x6c, 0x2f, 0x64, 0x65, 0x6e,
        0x73, 0x65, 0x2f, 0x4d, 0x61, 0x74, 0x4d, 0x75, 0x6c, 0x3b, 0x73, 0x65,
        0x71, 0x75, 0x65, 0x6e, 0x74, 0x69, 0x61, 0x6c, 0x2f, 0x64, 0x65, 0x6e,
        0x73, 0x65, 0x2f, 0x52, 0x65, 0x6c, 0x75, 0x3b, 0x73, 0x65, 0x71, 0x75,
        0x65, 0x6e, 0x74, 0x69, 0x61, 0x6c, 0x2f, 0x64, 0x65, 0x6e, 0x73, 0x65,
        0x2f, 0x42, 0x69, 0x61, 0x73, 0x41, 0x64, 0x64, 0x00, 0x00, 0x00, 0x00,
        0x02, 0x00, 0x00, 0x00, 0x04, 0x00, 0x00, 0x00, 0xa0, 0x00, 0x00, 0x00,
        0x22, 0xfe, 0xff, 0xff, 0x00, 0x00, 0x00, 0x01, 0x14, 0x00, 0x00, 0x00,
        0x30, 0x00, 0x00, 0x00, 0x06, 0x00, 0x00, 0x00, 0x00, 0x00, 0x00, 0x02,
        0x70, 0x00, 0x00, 0x00, 0x0c, 0xfe, 0xff, 0xff, 0x08, 0x00, 0x00, 0x00,
        0x10, 0x00, 0x00, 0x00, 0x01, 0x00, 0x00, 0x00, 0x00, 0x00, 0x00, 0x00,
        0x00, 0x00, 0x00, 0x00, 0x01, 0x00, 0x00, 0x00, 0x04, 0xf3, 0x56, 0x39,
        0x46, 0x00, 0x00, 0x00, 0x73, 0x65, 0x71, 0x75, 0x65, 0x6e, 0x74, 0x69,
        0x61, 0x6c, 0x2f, 0x64, 0x65, 0x6e, 0x73, 0x65, 0x2f, 0x4d, 0x61, 0x74,
        0x4d, 0x75, 0x6c, 0x3b, 0x73, 0x65, 0x71, 0x75, 0x65, 0x6e, 0x74, 0x69,
        0x61, 0x6c, 0x2f, 0x64, 0x65, 0x6e, 0x73, 0x65, 0x2f, 0x52, 0x65, 0x6c,
        0x75, 0x3b, 0x73, 0x65, 0x71, 0x75, 0x65, 0x6e, 0x74, 0x69, 0x61, 0x6c,
        0x2f, 0x64, 0x65, 0x6e, 0x73, 0x65, 0x2f, 0x42, 0x69, 0x61, 0x73, 0x41,
        0x64, 0x64, 0x00, 0x00, 0x01, 0x00, 0x00, 0x00, 0x04, 0x00, 0x00, 0x00,
        0xb2, 0xfe, 0xff, 0xff, 0x00, 0x00, 0x00, 0x01, 0x14, 0x00, 0x00, 0x00,
        0x30, 0x00, 0x00, 0x00, 0x05, 0x00, 0x00, 0x00, 0x00, 0x00, 0x00, 0x09,
        0x44, 0x00, 0x00, 0x00, 0x9c, 0xfe, 0xff, 0xff, 0x08, 0x00, 0x00, 0x00,
        0x10, 0x00, 0x00, 0x00, 0x01, 0x00, 0x00, 0x00, 0x00, 0x00, 0x00, 0x00,
        0x00, 0x00, 0x00, 0x00, 0x01, 0x00, 0x00, 0x00, 0x95, 0xf4, 0x37, 0x3c,
        0x19, 0x00, 0x00, 0x00, 0x73, 0x65, 0x71, 0x75, 0x65, 0x6e, 0x74, 0x69,
        0x61, 0x6c, 0x2f, 0x64, 0x65, 0x6e, 0x73, 0x65, 0x5f, 0x31, 0x2f, 0x4d,
        0x61, 0x74, 0x4d, 0x75, 0x6c, 0x00, 0x00, 0x00, 0x02, 0x00, 0x00, 0x00,
        0x02, 0x00, 0x00, 0x00, 0x04, 0x00, 0x00, 0x00, 0x1a, 0xff, 0xff, 0xff,
        0x00, 0x00, 0x00, 0x01, 0x14, 0x00, 0x00, 0x00, 0x34, 0x00, 0x00, 0x00,
        0x04, 0x00, 0x00, 0x00, 0x00, 0x00, 0x00, 0x02, 0x58, 0x00, 0x00, 0x00,
        0x04, 0xff, 0xff, 0xff, 0x08, 0x00, 0x00, 0x00, 0x14, 0x00, 0x00, 0x00,
        0x01, 0x00, 0x00, 0x00, 0x00, 0x00, 0x00, 0x00, 0x00, 0x00, 0x00, 0x00,
        0x00, 0x00, 0x00, 0x00, 0x01, 0x00, 0x00, 0x00, 0xf5, 0x7b, 0x7d, 0x3a,
        0x29, 0x00, 0x00, 0x00, 0x73, 0x65, 0x71, 0x75, 0x65, 0x6e, 0x74, 0x69,
        0x61, 0x6c, 0x2f, 0x64, 0x65, 0x6e, 0x73, 0x65, 0x5f, 0x31, 0x2f, 0x42,
        0x69, 0x61, 0x73, 0x41, 0x64, 0x64, 0x2f, 0x52, 0x65, 0x61, 0x64, 0x56,
        0x61, 0x72, 0x69, 0x61, 0x62, 0x6c, 0x65, 0x4f, 0x70, 0x00, 0x00, 0x00,
        0x01, 0x00, 0x00, 0x00, 0x02, 0x00, 0x00, 0x00, 0x92, 0xff, 0xff, 0xff,
        0x00, 0x00, 0x00, 0x01, 0x14, 0x00, 0x00, 0x00, 0x34, 0x00, 0x00, 0x00,
        0x03, 0x00, 0x00, 0x00, 0x00, 0x00, 0x00, 0x09, 0x48, 0x00, 0x00, 0x00,
        0x7c, 0xff, 0xff, 0xff, 0x08, 0x00, 0x00, 0x00, 0x14, 0x00, 0x00, 0x00,
        0x01, 0x00, 0x00, 0x00, 0x00, 0x00, 0x00, 0x00, 0x00, 0x00, 0x00, 0x00,
        0x00, 0x00, 0x00, 0x00, 0x01, 0x00, 0x00, 0x00, 0x97, 0x58, 0x64, 0x3c,
        0x19, 0x00, 0x00, 0x00, 0x73, 0x65, 0x71, 0x75, 0x65, 0x6e, 0x74, 0x69,
        0x61, 0x6c, 0x2f, 0x64, 0x65, 0x6e, 0x73, 0x65, 0x5f, 0x32, 0x2f, 0x4d,
        0x61, 0x74, 0x4d, 0x75, 0x6c, 0x00, 0x00, 0x00, 0x02, 0x00, 0x00, 0x00,
        0x03, 0x00, 0x00, 0x00, 0x02, 0x00, 0x00, 0x00, 0x00, 0x00, 0x16, 0x00,
        0x1c, 0x00, 0x18, 0x00, 0x17, 0x00, 0x10, 0x00, 0x0c, 0x00, 0x08, 0x00,
        0x00, 0x00, 0x00, 0x00, 0x00, 0x00, 0x07, 0x00, 0x16, 0x00, 0x00, 0x00,
        0x00, 0x00, 0x00, 0x01, 0x20, 0x00, 0x00, 0x00, 0x40, 0x00, 0x00, 0x00,
        0x02, 0x00, 0x00, 0x00, 0x00, 0x00, 0x00, 0x02, 0x64, 0x00, 0x00, 0x00,
        0x0c, 0x00, 0x0c, 0x00, 0x00, 0x00, 0x00, 0x00, 0x08, 0x00, 0x04, 0x00,
        0x0c, 0x00, 0x00, 0x00, 0x08, 0x00, 0x00, 0x00, 0x14, 0x00, 0x00, 0x00,
        0x01, 0x00, 0x00, 0x00, 0x00, 0x00, 0x00, 0x00, 0x00, 0x00, 0x00, 0x00,
        0x00, 0x00, 0x00, 0x00, 0x01, 0x00, 0x00, 0x00, 0x65, 0x6a, 0x76, 0x3a,
        0x29, 0x00, 0x00, 0x00, 0x73, 0x65, 0x71, 0x75, 0x65, 0x6e, 0x74, 0x69,
        0x61, 0x6c, 0x2f, 0x64, 0x65, 0x6e, 0x73, 0x65, 0x5f, 0x32, 0x2f, 0x42,
        0x69, 0x61, 0x73, 0x41, 0x64, 0x64, 0x2f, 0x52, 0x65, 0x61, 0x64, 0x56,
        0x61, 0x72, 0x69, 0x61, 0x62, 0x6c, 0x65, 0x4f, 0x70, 0x00, 0x00, 0x00,
        0x01, 0x00, 0x00, 0x00, 0x03, 0x00, 0x00, 0x00, 0x00, 0x00, 0x16, 0x00,
        0x1c, 0x00, 0x18, 0x00, 0x00, 0x00, 0x14, 0x00, 0x10, 0x00, 0x0c, 0x00,
        0x00, 0x00, 0x00, 0x00, 0x08, 0x00, 0x07, 0x00, 0x16, 0x00, 0x00, 0x00,
        0x00, 0x00, 0x00, 0x01, 0x14, 0x00, 0x00, 0x00, 0x20, 0x00, 0x00, 0x00,
        0x20, 0x00, 0x00, 0x00, 0x01, 0x00, 0x00, 0x00, 0x48, 0x00, 0x00, 0x00,
        0x02, 0x00, 0x00, 0x00, 0xff, 0xff, 0xff, 0xff, 0xa0, 0x00, 0x00, 0x00,
        0x04, 0x00, 0x04, 0x00, 0x04, 0x00, 0x00, 0x00, 0x2b, 0x00, 0x00, 0x00,
        0x73, 0x65, 0x72, 0x76, 0x69, 0x6e, 0x67, 0x5f, 0x64, 0x65, 0x66, 0x61,
        0x75, 0x6c, 0x74, 0x5f, 0x62, 0x61, 0x74, 0x63, 0x68, 0x5f, 0x6e, 0x6f,
        0x72, 0x6d, 0x61, 0x6c, 0x69, 0x7a, 0x61, 0x74, 0x69, 0x6f, 0x6e, 0x5f,
        0x69, 0x6e, 0x70, 0x75, 0x74, 0x3a, 0x30, 0x00, 0x02, 0x00, 0x00, 0x00,
        0x01, 0x00, 0x00, 0x00, 0xa0, 0x00, 0x00, 0x00, 0x04, 0x00, 0x00, 0x00,
        0x58, 0x00, 0x00, 0x00, 0x38, 0x00, 0x00, 0x00, 0x18, 0x00, 0x00, 0x00,
        0x04, 0x00, 0x00, 0x00, 0xe0, 0xff, 0xff, 0xff, 0x06, 0x00, 0x00, 0x00,
        0x02, 0x00, 0x00, 0x00, 0x00, 0x00, 0x00, 0x06, 0xf0, 0xff, 0xff, 0xff,
        0x19, 0x00, 0x00, 0x00, 0x02, 0x00, 0x00, 0x00, 0x00, 0x00, 0x00, 0x19,
        0x0c, 0x00, 0x10, 0x00, 0x0f, 0x00, 0x00, 0x00, 0x08, 0x00, 0x04, 0x00,
        0x0c, 0x00, 0x00, 0x00, 0x09, 0x00, 0x00, 0x00, 0x04, 0x00, 0x00, 0x00,
        0x00, 0x00, 0x00, 0x09, 0x0c, 0x00, 0x0c, 0x00, 0x0b, 0x00, 0x00, 0x00,
        0x00, 0x00, 0x04, 0x00, 0x0c, 0x00, 0x00, 0x00, 0x72, 0x00, 0x00, 0x00,
        0x00, 0x00, 0x00, 0x72
};
const int g_model_len = 3832;
